<unk>	0
<s>	0
</s>	0
<0x00>	0
<0x01>	0
<0x02>	0
<0x03>	0
<0x04>	0
<0x05>	0
<0x06>	0
<0x07>	0
<0x08>	0
<0x09>	0
<0x0A>	0
<0x0B>	0
<0x0C>	0
<0x0D>	0
<0x0E>	0
<0x0F>	0
<0x10>	0
<0x11>	0
<0x12>	0
<0x13>	0
<0x14>	0
<0x15>	0
<0x16>	0
<0x17>	0
<0x18>	0
<0x19>	0
<0x1A>	0
<0x1B>	0
<0x1C>	0
<0x1D>	0
<0x1E>	0
<0x1F>	0
<0x20>	0
<0x21>	0
<0x22>	0
<0x23>	0
<0x24>	0
<0x25>	0
<0x26>	0
<0x27>	0
<0x28>	0
<0x29>	0
<0x2A>	0
<0x2B>	0
<0x2C>	0
<0x2D>	0
<0x2E>	0
<0x2F>	0
<0x30>	0
<0x31>	0
<0x32>	0
<0x33>	0
<0x34>	0
<0x35>	0
<0x36>	0
<0x37>	0
<0x38>	0
<0x39>	0
<0x3A>	0
<0x3B>	0
<0x3C>	0
<0x3D>	0
<0x3E>	0
<0x3F>	0
<0x40>	0
<0x41>	0
<0x42>	0
<0x43>	0
<0x44>	0
<0x45>	0
<0x46>	0
<0x47>	0
<0x48>	0
<0x49>	0
<0x4A>	0
<0x4B>	0
<0x4C>	0
<0x4D>	0
<0x4E>	0
<0x4F>	0
<0x50>	0
<0x51>	0
<0x52>	0
<0x53>	0
<0x54>	0
<0x55>	0
<0x56>	0
<0x57>	0
<0x58>	0
<0x59>	0
<0x5A>	0
<0x5B>	0
<0x5C>	0
<0x5D>	0
<0x5E>	0
<0x5F>	0
<0x60>	0
<0x61>	0
<0x62>	0
<0x63>	0
<0x64>	0
<0x65>	0
<0x66>	0
<0x67>	0
<0x68>	0
<0x69>	0
<0x6A>	0
<0x6B>	0
<0x6C>	0
<0x6D>	0
<0x6E>	0
<0x6F>	0
<0x70>	0
<0x71>	0
<0x72>	0
<0x73>	0
<0x74>	0
<0x75>	0
<0x76>	0
<0x77>	0
<0x78>	0
<0x79>	0
<0x7A>	0
<0x7B>	0
<0x7C>	0
<0x7D>	0
<0x7E>	0
<0x7F>	0
<0x80>	0
<0x81>	0
<0x82>	0
<0x83>	0
<0x84>	0
<0x85>	0
<0x86>	0
<0x87>	0
<0x88>	0
<0x89>	0
<0x8A>	0
<0x8B>	0
<0x8C>	0
<0x8D>	0
<0x8E>	0
<0x8F>	0
<0x90>	0
<0x91>	0
<0x92>	0
<0x93>	0
<0x94>	0
<0x95>	0
<0x96>	0
<0x97>	0
<0x98>	0
<0x99>	0
<0x9A>	0
<0x9B>	0
<0x9C>	0
<0x9D>	0
<0x9E>	0
<0x9F>	0
<0xA0>	0
<0xA1>	0
<0xA2>	0
<0xA3>	0
<0xA4>	0
<0xA5>	0
<0xA6>	0
<0xA7>	0
<0xA8>	0
<0xA9>	0
<0xAA>	0
<0xAB>	0
<0xAC>	0
<0xAD>	0
<0xAE>	0
<0xAF>	0
<0xB0>	0
<0xB1>	0
<0xB2>	0
<0xB3>	0
<0xB4>	0
<0xB5>	0
<0xB6>	0
<0xB7>	0
<0xB8>	0
<0xB9>	0
<0xBA>	0
<0xBB>	0
<0xBC>	0
<0xBD>	0
<0xBE>	0
<0xBF>	0
<0xC0>	0
<0xC1>	0
<0xC2>	0
<0xC3>	0
<0xC4>	0
<0xC5>	0
<0xC6>	0
<0xC7>	0
<0xC8>	0
<0xC9>	0
<0xCA>	0
<0xCB>	0
<0xCC>	0
<0xCD>	0
<0xCE>	0
<0xCF>	0
<0xD0>	0
<0xD1>	0
<0xD2>	0
<0xD3>	0
<0xD4>	0
<0xD5>	0
<0xD6>	0
<0xD7>	0
<0xD8>	0
<0xD9>	0
<0xDA>	0
<0xDB>	0
<0xDC>	0
<0xDD>	0
<0xDE>	0
<0xDF>	0
<0xE0>	0
<0xE1>	0
<0xE2>	0
<0xE3>	0
<0xE4>	0
<0xE5>	0
<0xE6>	0
<0xE7>	0
<0xE8>	0
<0xE9>	0
<0xEA>	0
<0xEB>	0
<0xEC>	0
<0xED>	0
<0xEE>	0
<0xEF>	0
<0xF0>	0
<0xF1>	0
<0xF2>	0
<0xF3>	0
<0xF4>	0
<0xF5>	0
<0xF6>	0
<0xF7>	0
<0xF8>	0
<0xF9>	0
<0xFA>	0
<0xFB>	0
<0xFC>	0
<0xFD>	0
<0xFE>	0
<0xFF>	0
re	-0
▁a	-1
in	-2
▁t	-3
he	-4
on	-5
at	-6
▁c	-7
es	-8
er	-9
nd	-10
en	-11
▁s	-12
▁and	-13
ing	-14
▁the	-15
al	-16
▁in	-17
an	-18
is	-19
it	-20
▁o	-21
ic	-22
ion	-23
▁p	-24
as	-25
ar	-26
▁f	-27
▁w	-28
▁d	-29
▁e	-30
▁of	-31
or	-32
ed	-33
▁l	-34
▁m	-35
ct	-36
ro	-37
res	-38
▁to	-39
im	-40
▁b	-41
om	-42
il	-43
▁h	-44
▁re	-45
ent	-46
▁are	-47
ul	-48
ve	-49
ur	-50
▁T	-51
ate	-52
se	-53
▁A	-54
ge	-55
le	-56
lo	-57
ly	-58
st	-59
▁r	-60
ions	-61
ch	-62
▁g	-63
▁ch	-64
em	-65
▁is	-66
▁su	-67
ce	-68
ci	-69
▁The	-70
od	-71
ts	-72
▁as	-73
▁ex	-74
ad	-75
lim	-76
per	-77
ure	-78
limate	-79
os	-80
th	-81
ast	-82
ity	-83
▁con	-84
if	-85
ies	-86
▁he	-87
▁inc	-88
ation	-89
▁chan	-90
ab	-91
ut	-92
▁I	-93
▁se	-94
▁th	-95
▁al	-96
▁pro	-97
▁climate	-98
ect	-99
▁mo	-100
ures	-101
▁ris	-102
emper	-103
emperat	-104
ff	-105
id	-106
qu	-107
▁C	-108
ver	-109
▁on	-110
▁dis	-111
▁change	-112
▁temperat	-113
ir	-114
▁n	-115
lob	-116
ric	-117
▁de	-118
reas	-119
▁such	-120
du	-121
ou	-122
ain	-123
ces	-124
her	-125
▁increas	-126
ult	-127
▁In	-128
▁be	-129
▁ec	-130
▁le	-131
read	-132
lobal	-133
▁more	-134
▁temperatures	-135
ac	-136
ig	-137
ol	-138
ru	-139
ood	-140
able	-141
▁com	-142
ue	-143
▁S	-144
and	-145
est	-146
mer	-147
▁co	-148
▁en	-149
▁we	-150
▁for	-151
▁res	-152
ffect	-153
ow	-154
▁H	-155
all	-156
ave	-157
ges	-158
ill	-159
ter	-160
▁so	-161
ater	-162
ific	-163
onom	-164
▁reg	-165
▁global	-166
am	-167
ri	-168
hic	-169
ome	-170
▁by	-171
▁im	-172
alth	-173
ment	-174
▁par	-175
ities	-176
▁food	-177
▁econom	-178
ke	-179
un	-180
▁M	-181
eas	-182
enc	-183
oss	-184
ple	-185
vel	-186
▁it	-187
▁st	-188
ated	-189
ates	-190
ruct	-191
▁inf	-192
▁int	-193
▁have	-194
▁heat	-195
▁these	-196
▁regions	-197
ak	-198
me	-199
ot	-200
so	-201
▁E	-202
▁F	-203
▁W	-204
ans	-205
ant	-206
esp	-207
ild	-208
ine	-209
ith	-210
rop	-211
▁an	-212
▁at	-213
▁hu	-214
cial	-215
here	-216
ires	-217
rast	-218
ular	-219
▁bec	-220
▁cor	-221
▁has	-222
▁imp	-223
▁sea	-224
ction	-225
▁comm	-226
▁cont	-227
▁rain	-228
▁that	-229
ructure	-230
▁health	-231
▁infrast	-232
▁infrastructure	-233
av	-234
gh	-235
ia	-236
ld	-237
ns	-238
us	-239
▁v	-240
act	-241
rou	-242
▁As	-243
▁ag	-244
▁ev	-245
▁li	-246
ents	-247
hich	-248
ited	-249
lood	-250
requ	-251
ting	-252
▁car	-253
▁wor	-254
ility	-255
rough	-256
▁also	-257
▁loss	-258
▁rise	-259
▁with	-260
ations	-261
ricult	-262
▁areas	-263
▁flood	-264
▁frequ	-265
▁which	-266
▁diseas	-267
▁drough	-268
▁effect	-269
▁economic	-270
ew	-271
gy	-272
▁P	-273
cid	-274
dit	-275
ers	-276
ign	-277
man	-278
ong	-279
tic	-280
tre	-281
ust	-282
cean	-283
reat	-284
ther	-285
vels	-286
▁far	-287
▁not	-288
▁pol	-289
▁pre	-290
▁war	-291
arine	-292
ather	-293
ready	-294
treme	-295
urces	-296
▁sign	-297
▁coral	-298
▁human	-299
▁rainf	-300
ability	-301
ificant	-302
ticular	-303
▁impact	-304
▁rising	-305
▁already	-306
▁effects	-307
▁droughts	-308
▁particular	-309
▁significant	-310
ay	-311
ef	-312
et	-313
io	-314
▁G	-315
▁N	-316
▁U	-317
bon	-318
efs	-319
ens	-320
erb	-321
ide	-322
oun	-323
ren	-324
vir	-325
yst	-326
▁Th	-327
▁ab	-328
▁ac	-329
▁ad	-330
▁ne	-331
▁pl	-332
▁un	-333
arge	-334
ence	-335
ency	-336
ergy	-337
ical	-338
ress	-339
▁but	-340
▁gre	-341
acerb	-342
allen	-343
atter	-344
viron	-345
ystem	-346
▁lead	-347
▁produ	-348
▁reefs	-349
atterns	-350
▁carbon	-351
▁contin	-352
▁energy	-353
▁levels	-354
▁environ	-355
▁exacerb	-356
▁extreme	-357
▁weather	-358
riculture	-359
▁diseases	-360
▁increasing	-361
▁environment	-362
▁particularly	-363
cl	-364
el	-365
iv	-366
pl	-367
cur	-368
ess	-369
ive	-370
ner	-371
olo	-372
ort	-373
osp	-374
wav	-375
▁Ch	-376
▁He	-377
▁Un	-378
▁am	-379
▁ca	-380
▁po	-381
▁ur	-382
dust	-383
ever	-384
land	-385
peri	-386
sequ	-387
▁For	-388
▁iss	-389
▁wid	-390
astal	-391
ating	-392
ulner	-393
water	-394
waves	-395
▁This	-396
▁acid	-397
▁like	-398
▁long	-399
▁redu	-400
▁warm	-401
curity	-402
ystems	-403
▁large	-404
▁ocean	-405
▁where	-406
▁world	-407
espread	-408
▁United	-409
▁become	-410
▁cities	-411
▁events	-412
▁experi	-413
▁floods	-414
▁indust	-415
▁marine	-416
▁consequ	-417
▁impacts	-418
▁leading	-419
ification	-420
▁frequent	-421
▁increase	-422
▁patterns	-423
▁rainfall	-424
▁production	-425
▁widespread	-426
ap	-427
eo	-428
iz	-429
li	-430
lu	-431
ss	-432
▁L	-433
▁O	-434
▁R	-435
▁j	-436
ace	-437
ach	-438
ail	-439
ane	-440
any	-441
but	-442
ced	-443
cer	-444
chn	-445
cip	-446
hel	-447
ile	-448
ish	-449
iss	-450
ist	-451
lud	-452
ord	-453
pul	-454
rom	-455
ues	-456
▁Af	-457
▁St	-458
▁dr	-459
▁em	-460
▁or	-461
▁pr	-462
▁sh	-463
▁sp	-464
▁te	-465
cess	-466
espe	-467
mers	-468
mosp	-469
olog	-470
ores	-471
orts	-472
over	-473
plac	-474
rica	-475
ross	-476
vest	-477
west	-478
▁How	-479
▁act	-480
▁due	-481
▁eff	-482
▁exp	-483
▁gas	-484
▁led	-485
▁lim	-486
▁peo	-487
▁sub	-488
aking	-489
ample	-490
cipit	-491
ences	-492
fires	-493
oming	-494
orest	-495
ribut	-496
▁caus	-497
▁crop	-498
▁espe	-499
▁from	-500
▁into	-501
▁land	-502
▁mill	-503
▁only	-504
▁over	-505
▁plan	-506
▁reso	-507
▁some	-508
aching	-509
cially	-510
ildren	-511
reaten	-512
▁These	-513
▁emiss	-514
▁green	-515
▁issue	-516
▁other	-517
▁parts	-518
▁popul	-519
▁techn	-520
▁water	-521
ditions	-522
unities	-523
▁Africa	-524
▁States	-525
▁affect	-526
▁atmosp	-527
▁common	-528
▁includ	-529
▁people	-530
▁social	-531
▁vulner	-532
allenges	-533
▁Climate	-534
▁However	-535
▁coastal	-536
▁displac	-537
▁example	-538
▁becoming	-539
▁threaten	-540
cipitation	-541
▁emissions	-542
▁experienc	-543
▁increased	-544
▁resources	-545
▁atmosphere	-546
▁conditions	-547
▁especially	-548
▁agriculture	-549
▁communities	-550
▁consequences	-551
▁increasingly	-552
▁acidification	-553
▁environmental	-554
ag	-555
ds	-556
ks	-557
yd	-558
▁(	-559
▁B	-560
▁k	-561
▁u	-562
age	-563
anc	-564
ase	-565
ath	-566
avy	-567
ban	-568
erv	-569
fic	-570
hen	-571
hou	-572
ica	-573
ice	-574
iod	-575
iox	-576
lic	-577
lut	-578
one	-579
ons	-580
ous	-581
out	-582
pre	-583
rel	-584
rit	-585
row	-586
uch	-587
uld	-588
▁Ag	-589
▁An	-590
▁av	-591
▁me	-592
▁ro	-593
▁tr	-594
▁wh	-595
ctor	-596
ense	-597
enti	-598
gent	-599
merg	-600
omes	-601
rial	-602
ries	-603
tect	-604
vere	-605
▁Hur	-606
▁Ris	-607
▁air	-608
▁bur	-609
▁can	-610
▁dam	-611
▁fac	-612
▁its	-613
▁one	-614
▁rec	-615
▁sup	-616
house	-617
ional	-618
lease	-619
ounts	-620
uture	-621
▁Amer	-622
▁Chan	-623
▁Heat	-624
▁bill	-625
▁decl	-626
▁diox	-627
▁ecos	-628
▁just	-629
▁many	-630
▁most	-631
▁much	-632
▁need	-633
▁requ	-634
▁resp	-635
▁risk	-636
▁seas	-637
▁shif	-638
▁will	-639
asters	-640
ensity	-641
isting	-642
lution	-643
ration	-644
rowing	-645
▁activ	-646
▁being	-647
▁could	-648
▁homes	-649
▁polic	-650
▁press	-651
ologies	-652
related	-653
▁Global	-654
▁Hurric	-655
▁across	-656
▁action	-657
▁invest	-658
▁island	-659
▁losses	-660
▁reduce	-661
▁result	-662
▁severe	-663
▁urgent	-664
ildfires	-665
reaching	-666
▁amounts	-667
▁changes	-668
▁dioxide	-669
▁	-670
e	-671
a	-672
i	-673
t	-674
n	-675
s	-676
r	-677
o	-678
c	-679
l	-680
h	-681
d	-682
u	-683
m	-684
g	-685
f	-686
p	-687
,	-688
y	-689
b	-690
v	-691
w	-692
.	-693
T	-694
k	-695
A	-696
x	-697
C	-698
I	-699
-	-700
q	-701
0	-702
2	-703
S	-704
H	-705
F	-706
M	-707
1	-708
E	-709
W	-710
P	-711
G	-712
N	-713
O	-714
U	-715
j	-716
z	-717
"	-718
'	-719
L	-720
R	-721
(	-722
)	-723
4	-724
B	-725
5	-726
9	-727
:	-728
V	-729
°	-730
$	-731
%	-732
6	-733
7	-734
8	-735
D	-736
K	-737
Z	-738
–	-739
’	-740
